98cb2c149941aebcc799d447bb63f46a2ef5950ef362035ccbea3db35fe1dc66
556ded74ddbdb857759155ca0ede914a1997f4d627ef41d27222187927f0d666
b8d4e957f84c03010e70fd3405450695a6a0a082b5443e972492eb6799e2ac63
9e1344a02ef39914fe0193bb2e8c14bf00330981365bdb25f044fd9dd51af5eb
8657a1da4a8dfe3005e76b586e93f2eb01cf18fc865670159c954d394de2d1cb
3b96e70e5dc9e3cff9480abb4ac9fddb0bf247ff23b5dea9665d49fe9ca2643a
fbb504f383a4de3661e9076b331dd2329e4e8bbdc9014aae1731fbbd74c100bd
7353eb482ba77814ae28a2869b880f32dc250de40be42c82777dc5f897a87b3f
62aaa7f9cef320f19033a80df733a93bf1342258f2ea29830365551110a738a6
aeea5bbb70add56e3db3d85baf29e5533b1bdb8119010a3404165d594dfb2b08
641c8c50e8c938cd2c61a02208cdafaed54c43077ec3e9fc9c28bdab1f3de5c6
353baa3585232d856cd703fd4fcc4c01c15f5d83a99b0f672ea70631423f67a3
7323162bc66f1ad9d79ff991f836b2be080425dc2f529f359154cf038bf53469
53982d0eebfff32fba2e7f5e990ff90ded3983e3e51367bd652890c9f08300a1
d8335ed45348d927f60f5ebd0b9403f8855564fb322beed692089dcd16a771c7
f71af8d85b542f9996355317d42824348a29436e45772151bf505eec63805acf
2a4eef2ccd5cc80e4bd8949c24139c2846a7e1ec8aee217b9b6698bb47eb52fb
4b220a8732df07eb6516f480c5b1d5576c640a08fca49f460400bf581315c040
ca48f1a2baa036a2b61a8187b4f49a5032e755f2d0c2148a039abc3e0169e5d7
ea3acc1b1da99828a6acfbf95bc468e6ed220de912f497049b20317ac571f920
5eedf1f610455c2f186ccc2054b5bba1730f330b9f907747d99c20c8dcf45886
46542ad5a336f767975f4aabbac77862aa79e324533f36d7ab392e3d4f9c8996
d9526a82b69735cdf8c21fae1e9dba6462077ee278e313c08fada622e3205fda
0a59db1a7e696366418db18dc55e1afe3c6981f68fafdcd9b8c34404c2c2cf00
33a3deb21b9ec5cc70785b7b0681de291c6357596d73540eb5ee00ce85d1d188
b20d57838231b05f9032d3fc5079a23379b1dcf0a2ebcae6e550c35f080bbe3e
33fbd21cc16bccaa8a33068e690edaec9abb18e63fd19d9623ab39e4e85646dd
e166571b2945cc55b1dd6cf24a2d26ba994f3f4613b4f49ff15eda0c3a928423
74df731bdf180a851b01abf4a226bfb84baea63dcee0fa2c9fd5aaa9ee00aa41
5308467f8a12554ae21ea7bde47ebf1d6aa065532fc30e2b37ebb66bcdbd741b
45aa75801c2c5ce0e825e8bd5168ace65b3655d8e5663d5b1f4127f6ceb465f9
4e062502dc58d6e85a41f3ccd1696a7300221a786d56efbda5cf051a3a59f578
b1437ce038dc0ea47c1dd13d6adb728888ba159a82c055c72a26e2c501c79d66
3800ee9f52bd6d752b151f3af16287ce3e7f0297566df2ab44f834e91eaf7f32
410099b9f8c6b5f0109cc73d5d16d4706761ceb3b3f90ce88edfc5d784cf765f
25e906644d065c70b6575d827f4bad81b240ff264074cdfd3f33450bf662f233
6939b8db80af9281fa0370019c0c6870444bc2ba09716c50ff6bebb748eb4e70
ae42b67d3d53ed92a264d980e8841ce0585696df47555fe4087603560d2db635
97baf8f63df7559f8d8a66c5fc53969f72a1ead97d4cc6ab87eb54342517d481
cd9a9125ba6c62fe3dfe31903cd5d07a5ea1acb7c2f980ca14b2cdb6ac111343
d101adfe8928878a66195bd5a22f00c5fbc19e61a1decb7378659f445e270917
b220c9cf2fbfad45821950ba521ea47b26956cc8d5d66260cc60588f171d3aef
b60de559043f19923861b7a3ad74dbba53720afb9744c293dbbd67020a703d5c
f0c621e82ca34733189f06c6a52a0b5f59422c9339fba092cf3b75fe831887c2
acfa070a23349280d6742b67efcd8951848b5a266301167f65c747a7b0e14ba0
b21eed29e0994fdd8a9c559eecb8b8963585b7b11d0c99d8bc371fb857501fdb
84423ff38e21a3f8fb6f626fd13579592cc9d88fa8f4b6fb3a82410642087662
8eec51c4e5afee8bf725b8fd17d5952fff0a7b803dea080142c5b37087972e3b
b34aa6925965cc6247641ce856caa808304f1bf6a212effae1f4749fe681cc24
e344e6a0c7a5ec77678dd835e3181897db381193e5a90482d8bec8cfb9d83b2f
ab42d067e607a5a5c90c15a329607fc7ef85c670158a324ad9d67273a45c2f97
f9420898a9db4062f0ac95d819fa09fd5f4dec6f025abce294a7e0fd9b3eef53
72cbeca2b1200b357c512ec18c79d1514e2c536d292ab77f48af0b91014bb75c
7e6fd18d3cbc5b2004a09643b65160a02d096fe33969b6a8fe94c3bca6e6eecf
b88f84c2d966b486be81f587a64e577f5dd0e5f7bf1a0f932dc7532f534d6514
a2e6b1d55e229f728241a3ba17fb11cb8ae3eaaf917cac204edd127fa8595190
7c9b223264a20d6cfa98b8e5f91738259701c69d3e761aed401e441543e44d76
a5257e6080acd31d599ebd14cb78c0e16f34781aa1924d1ae7f61707e45d29b5
7fcb232fb8f29f3c3aed6bfb31fb71c4dd3a15e07e15a3bfab3e9b6e93aff91b
fe9adcab2d5720100b299dffa53dac30c4bff4bf06399222926ede0347e0b292
bf6a7f7b5ec2b862e22caa05ea348d744791442df434a9dc784e489df0c1e4db
9281c25ef776b0b48d82012d6d9d79f054ac0d5ceda64917f3fc842403f4f6e8
30df8b9f6295c3d44e4228fc4b6100be1349e473da5ed3e0faf702bbf6afcc62
650a7fe98e8a87185f6868112b63e07f7c3b4d425121ccff44bac4a0d9e417d6
357bb27118e08f171206caad91ef8767ee159542b22f0239d81e5a35efa7d6de
4b9829e984b1409a4110de7e23dc8bc15bd04696fd742b55abd00fae9d711d1f
b57b30f5b3d5ff2a22f99d88b26f9fa0d9426c67bda303105292afd9e09b8581
4196c731cf6397626b76c219cf324af64be816a94b28d5dc8d859c265c079caf
a0bdb02380635f380153cb8682e755f914e35b3be9ca220c9c8c2997ddf87398
0cff2a8dcbb9118f65939fedb3b419ff12292f07a664094031bbf013cc5d12ac
703fd71f180f334194307d616026345b0711e48e5686d9d6e2f95772e3d763cb
fb59ecbd8aeac23e27b0ceb977316e985401d03209338355ac09e7be940a2ad6
09f112a9098fa6b34010793007cedd55dc437a399740d939d6c45895495ac47c
d3ef390785b1bbe0539f6a64208709bb897e3bea5c3574354da2cf0ed295f345
d78ed30515d954c3750f54669f75c004f71abe6b37400beb4583d63bc51e4c34
236b1ba7a32e9b36b3133b628a67102e694e7d5d8806db7331c2e3df0d3b036c
0a83669252ad469db6efb469842c427bf8339171f9d1710c21fb9a8fb9e11f33
403865591415b7b6be79943970606e5b6efb37124555433e66192077cb915290
b041878bb22b5d886da6047ed602cb1614b4173df67020742f307dd9067d62e4
3d62b45f400feb21713dfeee280c4200ea4b72792c5d04390ee5c68068b123f4
a365b38047a9bf74ef42dceca902b1e72ed04e58b6efc22f180814758c9a1e7d
bae3db5c9c99bb156f8842448dea25bea83872bfbce6cfe6844634bcf4720d0f
1ec31c55c20233e4289d0db25b21068f90e7d0993f6b4c4b0c371fc26b6ae8f6
4fb8c85d0a6d33f0181aac2e0bc6d444178024db1db6efcd57856d1c03af4ab8
c36bd9d9190ba8d90464ab8f796374cb2ce271c4b422ebf3fac133bddaff76ed
a65791646f10e6dd76f4dcfd2c56f52058a7666379357226ce91d9547dda89af
42c9ecb30b990b21e2fd7c63a2957f44f2fb36f59da85a090c4d96f966046816
8a14a3f7db42eb008044265f80cd89b9eef5ae92a0385af903eaff895fe69cde
f1ba7901a47596f6f1a2e14f1210cb179da86c0f29b61203af183feca8a02544
ad5ae78b93524697cd0b0353f0b2eddaa2eb589f95f5637fde00bfdb06c971f0
d2156daa8bad8ab2cfab13bc75500fa020e56620a4ae897b92c82ea2635f1ab1
34e9442ae7c50f49a6c7b4a7f61095a0d2077e4062d79f42a03d950bf103d664
09f97cfc04aa2f8160940d2d19cc965e36ef500b11c1a98c4622511c321f5e2b
62a95a5c51a86307a7dd705912396b5056286ad6aed988229e45e2f1182d69f2
7efc4f864827a26842bce072d08101a157332bfd05f52659ae7e3bc9d849bf99
0a081d77e0a2019cefc82c4aa10265ec592c9671b25d5df4b16143391e400cc3
6c6897642d6cad898c47e2a348336af8f7b35bfccdb0ed146afe82d8bc2d9da3
20b0462369a14fefbb4d4462fd91beb0936fcae2ce8cb8bf918a8b97c02849c8
8fd67edfee461cbdddfb5a96573ee697949e885fc6c2ffe6400113f05f3c93d1
3cfd0b62c129b8d8bd6aa916c039160cae0a4eb66dd28d703d14af0bdbc0f024
63be02d8d392b76f7f1ea2538158383d88c9af70e70db51060b2d71d1a665368
f562f9bc02c6418b0db1366363a2b8b019989c12e54102ba4c31d18c51eec555
ad40cadef33742cdf4f0e71b51be89c65adb1108175e904bd8de5f92e7c71ce8
1779ec4472cd53741552208fa1c0156e7e36edf992ccd3527b867e33f35afd7f
f239ce34c09b9de3367555d4ac2a2b7a8dbf7bb354235c189a39918b4b0fdc62
f96854b97e925429ee515eb41759486c1d0c0426ca246a38c803048fcaa4ec96
8bc122dce34094d6bcae5ca2710824840e4d92798cadecdefef5598d0ebc2ba6
d64343b9c2f25c49b022bc08249b1a4bf7f992ee1df81a91b4b15f4a59d590ea
38fac4a7b372b68c6d1454ad15880606d6a6ace519e32cfcddeb1b909e4389eb
8369581c14d346042587e4c1b4cc4a79e4535b1ad2656bb1658af58812a098a9
e15f45555ee26740dcf6a56c5fd035ef94d06e87fc9469523bb4d5a515b7eca4
59a7e723c0dd64839786052cfc6a90d8e85e9d46f27ee1fe3c976690d013a1f3
b48068a68ef394b560c3cb6bc6f319bc7b4e871215604d9eb54b5cfb60528c45
40f150ac7e1cadc26f383c7d1c777026548b6e12e806d7593fac62c96c99d05a
c466e1c71e6ad9dbbdb076930e69e439924c0e7d77fa24db67bb52f102e8128c
3ccd395b9557a7ccae589982befccc00be84a7a6a632a568d2a2637e1e16333c
874343a0de5c833715385d9849246d707a4b85fb5ff784be667501f8f650f0bd
8e5658acf849fa9ffa57b2ac031c8e2bcd570839f695c0856fb3b474393d93a5
eb4b2afbfe32f0caecb56cd487176b750b1c504fe421f494529b932e0b0c873c
2a8d182e85e9bd91134fadb8f8243613b20676928dc964e240c3f6a312e454e4
b269ae35a0a7a574feeece00745ccd9e4b63f48eb21c960d3780cd30a12044e8
f56d854947ed340bea4e1bca0ba25fb8bcb2a1d6e6b24a8f625b0d0295959f75
55edd1749ec1029b1b545d9774a5ebcb64ff6165e3e853c70ed02b0ff34e2adf
3ab99d3b5a754ab963658e8776b4f059a597daa33028b55b2b70247947027407
7407979afc784ebf428c12e3f971f0285c3f936413e66adb4414821b956a7cb1
9a4fe9ccd054ded36944d7f44f3d33a0479e94c8893d9c900845dbbeb2bab9f5
f0c6b185d291ccfc1381de22e932862d22186b8c29a1439c455d7aefaf4a8adb
152f00096b11f9c1eb4f27989d08c72e94c712c4b9c8c0ff6aa8db72f3261651
