b93df7c388a3250316208e8243689cf1df964cfdbd73e586723b969b2777374b
152051d9088e4e8d4ba1bf85e6953fb408b1e031eb33011659b8f1b003bb2f4c
fbd04ccc9b284468ad0e2d7548a8f9805f72144a23202676b9d821cbf4faa1a2
25e19da1856f11a3309bbc6400940fbee99c2523da4ce0597b459052f1b8bd0d
74bfc0d02924bbb2f52db5d6c4a47092af2fed607c41b1bfe842ac778d52569e
392e12f01dc4119ef17416ad229d2249cd1fba6d0553ca7b902a0486c3ba3bd4
a11e094fd0f067d833e192bb78a283d97ffc66bbabe4521bb3f3dc6e4f5572a0
ddc1064153db97c42a1405e0b3df0f040d8e3b38bbae24e124f0c2f64a225c19
2c3f62b5f347bf44fc8f45739fe49cf537b75ccbfa6203a50994ed2c55ab75eb
9bb6ccc67388f2aa6bf621e06819943c8ba380afd333ce6b1f216d35c47948cb
4de24e3bf66cc03a44c161ca2d74d89ced3ee682fec15fc3ca17da6d668fcb46
efa7a4ed5fac51eb05443ad47690ecb7edcd78b66c8eb379bcd0f1636b53fc54
d14d572bbb8679f5438f20b31592e4c526fe88690900c99d921cba14772b89e1
919801f73889ca74717586f64cd7f1ed03b62e790724f712b9d20f2ba2de00a0
0c704b350c581064690441e66a9733a2ce06aff385f3745b802daa720e15ca46
e8eb2fc346f12750b18b03ff1d150094439b36a5cdb344709242590092891a3a
5053fe617620f2ef94ad326681ada8b8a2f3a3b67e24083992c9e4d7a44503ed
0fa688bb71a196093bb437ea9a758345a54f2d969b143f2c86be0e99e50de1c4
c2f447b4f1d0172cd9178cf8356049b08d4f0dc4e3714c0297830e1c7ae4589b
212015a4aa4e4fb1f459879e07f984368b16aa73985be9475fbde0a312ceeec4
a4e4511672149d48596ec29af10f2b48900f8ad3dcca844c049a128aa32bb22e
211fda615294fa846123aa4f9e9289596cdd99c4eca0efce48232338ab8257e9
74666f9367ece2db5ca37b04f5194eeb126ee51a4a9ce7d19a73a09451c9331c
b217b17e00d77ae1175a24c0b05d905d44fc3c6cdb70d72be717ced8f2517b72
ea339b4aa496ceda519084c2018346940c2df4a5eb7c43a6b055c8dfe66d2ec4
21c3d8d09980a4b23c75bfca9c5dd9f5868e08a298828a71e010245f629d9460
6e447711e953bdf9a5f2449eccfceb27dfaba16711e33daa8c0c26944ff1d811
47cfd02d6720feac43533221609ff580c9498e0f35ea61c368c9fdd131d63246
1515240fa5e0a70824a781d86b448e48ac26892833c0631a05e67914e29b0178
0d93f6ab22abe09e99d87b8ec74a08e9bd055a9355760bafabcf513e82fb084c
2302905240f992f36a387f16c96ea38fbf805c41671015054907338e3113f50f
ec1f2b429ae1a21313898f1e205aeadd2788dcd9ee40c891800fad1c1c073c93
8a20b4a51156807331f52ba9a8d36a88825257bba0643aee2bf9a8af4a456e62
14fd48ae020c81d050389e0d2d710ebd2f92732455b07a37cceb7a815afe4eb9
8ff4efc250cfa237e7274e0a15aadea4550eecd198f30f739cf460e802ac175d
92cc3bb32b7e73d8da3522e0e9ac36243f5a8d5edfa31b3e69db7f8ff7f75ef2
97c5a1978b3fe01e99a7df047daf399ae9b045ff3de54f3fa4974662511a5285
813c8ebfa8cab9c4d089364ca4cbafc27a75a69bbe0e9a20a46614b567cbdbdd
299e4fa14c58de75ea229fb2a435e8d7078403b2bf201d9d001babe626338616
ae2ce76757ec02eff6f45edb58375fade6bb8177fd16b72e3a929ed3603641c5
9c41d226930e0718fccf0460036b2138ea66c8d59e4efc116cf2ae729d186491
8620f9611dbfa8b71915a048b3f6a3d742e7ce44f32b78db2ba019c6c7160035
82fac8a01870bd113968ef20a1ccd1c7e5b0ddd26b3f90b21d78b33b3f214658
025324dff81c562f1992812ff8a8c64d16882b3f526c77c04e66554963eb4df5
61d4241ff30aaba30306a1f42a1b5bdefd55433d84874917a64c7ddbbe50a3c0
0d2dc8fec6627b69ef87ca040d10dd9c32e98d64e1f027533fc524f6ebfcc922
567f7833fcf373504cc61e63967fba9a28dd0f92e7c80612c3b5a48d1b1bf1c7
e720524642836608f9517da1c6ba5f8627d9fb71a13dd9385a5e2b2f6dbcc037
e8efd6356cab0ec05dc0ab03857442fc2d309131d3a929de8bbe5c36a38fce8e
c1bef105abc1a5ed954f358bffd066175ccb8aa3f22b9f534b917f7e87efd0a5
15c8cd4b06babf07755a7a6a243d2c1a6c8ee9acfb49527d32639231ca21a97e
52d4c49d859b69ea5800822219657ab068dc0c839dd8b75f7e596522bf16df67
367340542e2b5d3994060a783f99aa3fd843581c49232d9cab29a3ca81e70fe5
c638fbbddbd73290c6d73edcb633c76fc68bcbfa276735ae9a77dbc395756dad
54e24c31835504a0db80453a65a3ef78b865a7c443df88b83198cf11afba9f29
76b8e0364cb8ac7f4aae1775afa558b3b89f9b598bac98027c0396b1581dc485
4a86054d0aae8d5acbd76af3c69e0948bf4154eac9ce9ac0c5bfcffa3721b0bf
ab3c65c74aa147c7adad93cc8c32f452f6b0fac420d1435bc1e9cc2ba53e8764
2cbb9f3b578c99c498718cb3e5c357202d852a7b18ec15dd2d07a689d36a95eb
8cea465dbd7f7d61c17005c5159db752b5306fd2752427e48b7bd4a221d057b0
342907822fa73d428b5ae82f1b3ea58f5779caaa556443bf9fde0ab95d1debfb
9eb3ed94ee7605b72391964b7be28c206a5873a61cd4d05ad79c913284ed7d4a
84791418a925f58891bc9129ce34b9f95041cb832e2e2b49ff45d57f661b5fb8
7d434c9f791d119eb478601259fea06b5fb1ebe21fb6bdb4594d2ef79d0a157a
1c293508249062b4fcbed3d73a14d38c45154dd338cffd5c5bc450ce60dddbf3
6ef239696443ce1f24f95a7d51dcf83ebb8daa791f7db040826595e6babb9ac7
14c7e4d4c5332e5ce65f38ca2bafa727be26c4a627aed1d045bb519909b68418
00c76b76a945479ef4c5c90a58f560f989c10ed1bf4689f9b838dbae3d3c1d80
8cdcfa49ad31f4a22d02b9096bc500bdbbd1490f3ba44fb4b5f7fc7ca790d9df
b30c40b5e7caa69e2a15d3600a1b95f2aa7921889bd27c4cfa0e18229af7e880
14b3a463e85abdb03ef2e96c634da549cd44ed6c2dbe0e7b821b73cee39932e9
5f6bc0f02930e1fe8e2ba631b5a9265a60cef71d6eec4c986be07e4073bee4bd
f3190a5e603c03923af6b71012f7c5df2fa8da60038c7f8a9eb8954fdd1ed6e6
8c488459a44388ec18be05ed24bb1f4bab688b99833b48837d6278843fd649be
51a63e952bca4ec8b1962cb244e55ebe1b59ebe2d4754160df4421258a02d161
ea7563f81dd1c3c2a1558ba074ca72b976f03fa73dea3c7e95b9f7cb86c44c30
c8d5ddbbf35c4ba750d3f415e98e959b75bec5a3d62db45cdbd685f5998ced50
1a0330e1ac0e920c43c8f4b6c6d6dfab7a9d349483c2be76b5fe1fe694df1bd9
d81aec4291135b0d22575a2627864704057821346d7476f29521aef129edfae9
1f18c528e6700120587489e3fdb2ea2e71df9ed4742ad43403dd57338254948f
91aa6c8bd420bb517648eede7a6b99018df111b59b9092870c7c714c26c3d70c
877a8158e3e8c9c7e16ca05006da3449dcc6e985d429f3295f451a87edeed383
d8275c4dd17adbf5650985306096cf15e99ce2bd557f34f9afb4f11f2a0f7719
e90a84e20b71607637b870f9fe104a041820787d2d100b1159886b0932b39b79
daa6f80745463aef1d97ff2439aada57ce69491c695d8a6d33b762044f93caf3
2c5f6c49a2441b21814f336c3ef88d1d21a2be33cf9f0ce6ae2474b41b729ef6
30c88bc8d474cc5a3c5d4d323f49de7be7b3845b013eae54b390df1c5c45a852
e94b7855a701368ba04da0d3f98865992d2d4a5b1704a47e4d59beab6941cd88
f61f4d87e0d56c6910486464eeda92058e2033dded71b4d4025bde51a7f9d013
7d18ba02c1bf0294641aed697b1de690bd56ba2447693eb92699aae966ca5ce9
bd1b41b0a464ce7f42785ed6990640c7c24a4e3c6011e757ba7ef552824620fe
4c39c472ef5191521f8f4a1164b5e41c6de5ec2d9f1d208baaeb9ad6fa80ee89
6d667d1cffb0ba67bc305c1375a2ea0db94518d66e39cfb1df25fb43bb589aa6
3c5e9e695ccb905dfd342aa4d890849c4b1d710601ab44c0fbd4abebf6ae5ed2
27ed9cfd2d37fd51abd5fcbd9d634800abb9a97b4b61b508d2f2512265b4935c
dc40bf0c1a63ee59ccac68738fb9ab0d1612b1a7375eaa598b0cbc2e35588359
1ed2804af4ab0115354a0da37c6ccb4d2608e3cdce8fca6f4990f0444fb30f29
c41d520186da5d5699b2d38c72a71205f21b405f1d80b7c5362d94c4b6ed3554
c80ed15de8e2249b28bd1e9d0da3ff4941512457eb95b5fb46dd5fade5765527
529b00e867b01651198c0e10eb1773f796ef429e930e8d7c2cdc0a2bb0671e51
d5be2e7e8f73eb93da487c6bd0e5ec8748ab031dd3530637bd0be3cbac25b8ff
a9d0c27eb73acbf969602f36349deab9f692b54adba6b7518346c33e8f47d1fb
517f5932200e911d62e342fad942943ef8f186ee1e88e7f7ca6406d0d0dcf510
6929c977f291deefd1e1a7dcf051f653a43f5636787b4022603d3e5d0dc0394a
15244c21a42132cdbf9af1ee4052382cb8cc8d0cd029a7690e41fa069636c173
05640628e5b78631466ba5aeee6d5071b2d4780140d9c19ff71770a92a7094c5
9b9a15b32bb2eaa3e6aa0f3de16bbe92a2dc436079378435391b2d75be2f1bf0
13d95dd1d0c71db5405ff57a0988d21323b819e09963e73c4fc18a0982039e95
889e5cf5c9ae686b8a729390eedbca606de9f82cece088463645f64448164cdc
718e8b255dcfa5ec608ec1dc2896bf8dd48469354d958890492885d3d3b064ef
8932d8ffd72a5a0f30aab356d47309046bc3ea34ef92c935c228004564ac6448
f8ace899e660a5653ffdee8a76ee051134bc9503cc4455350de4afbfb182580f
ae902fdeb66bc98a220c97f2e7d4bc3d6d85de116943bcb9cd4c61d7f868e0ee
188db7215cceeee8cc7c8414f1b8056c64f7b6f0869b8e4c7968960fa459eaa2
cd452a2f89af91260d35587ecee045b671362c360f6ecac5cb70658623cfddaf
5847eea7bfa505812fb49e29a85c1f5d35b025cc57994f9f30b3e77a3d42efea
3563f80fcb91a49b98a8629a9aa6e6732130b0859f4a85750213e6ec15da2046
dde4bb05634bd2d5610dace3c0252e3ce87bb395295b673355a43dc0396bce9e
33a6dbde58880ade597aac20cc58d4fbe303d0de700d042804c5ebc21f1d2dc6
dc0b0afb18785037e05c9cb710cf93505499ca1ac3ffac37f7ea899d32e902e5
619e244534cf4a3b62a525195a7a2360a9265aaacd3b6ea4117156a4070a2f42
5c9ff6b5dfe4f6dd9e288a7d24727a2e5d9131ee4492b02672c2dc5600a7645e
201f9eb80a1187a466cb58db8453ac194f256554c3e607b3b8c8c58f1c9dfda3
840be7684c0cdaf349d98cc05d5e2808bbd6fb9657cc359ad70b70c032fbfbfc
cb1b0a758a03c2507a6d58611535b544cea054e617909323b02a7672a45ea07f
c95e23c4ade803e44ffee5474827a2b5f3b5ce5fabf080c8abc746fc4f44b4b5
163681cabeddec3318afae0941d4e9df6663d93b58ba0556b49e4714e14433d4
f558c41f4ac04da08e46fda9eccf864332fd4ac685ed48ada07bb3112313ce3b
